{
  "version": 1,
  "vocab_size": 1000,
  "merges": [
    [
      "a",
      "r"
    ],
    [
      "l",
      "e"
    ],
    [
      "a",
      "n"
    ],
    [
      "ı",
      "n"
    ],
    [
      "l",
      "ar"
    ],
    [
      "d",
      "i"
    ],
    [
      "▁",
      "k"
    ],
    [
      "▁",
      "s"
    ],
    [
      "e",
      "n"
    ],
    [
      "d",
      "ı"
    ],
    [
      "le",
      "r"
    ],
    [
      "▁",
      "b"
    ],
    [
      "d",
      "a"
    ],
    [
      "t",
      "ı"
    ],
    [
      "▁",
      "a"
    ],
    [
      "e",
      "k"
    ],
    [
      "▁",
      "m"
    ],
    [
      "i",
      "n"
    ],
    [
      "▁",
      "y"
    ],
    [
      "e",
      "r"
    ],
    [
      "▁",
      "d"
    ],
    [
      "o",
      "n"
    ],
    [
      "▁",
      "g"
    ],
    [
      "lar",
      "ı"
    ],
    [
      "a",
      "p"
    ],
    [
      "i",
      "z"
    ],
    [
      "▁",
      "t"
    ],
    [
      "▁",
      "ç"
    ],
    [
      "l",
      "an"
    ],
    [
      "▁",
      "K"
    ],
    [
      "ı",
      "z"
    ],
    [
      "l",
      "a"
    ],
    [
      "r",
      "a"
    ],
    [
      "l",
      "dı"
    ],
    [
      "y",
      "a"
    ],
    [
      "i",
      "ler"
    ],
    [
      "d",
      "en"
    ],
    [
      "a",
      "k"
    ],
    [
      "a",
      "b"
    ],
    [
      "▁",
      "A"
    ],
    [
      "d",
      "u"
    ],
    [
      "e",
      "l"
    ],
    [
      "o",
      "r"
    ],
    [
      "m",
      "a"
    ],
    [
      "e",
      "t"
    ],
    [
      "▁k",
      "a"
    ],
    [
      "▁",
      "Y"
    ],
    [
      "c",
      "e"
    ],
    [
      "▁",
      "v"
    ],
    [
      "▁",
      "o"
    ],
    [
      "ü",
      "n"
    ],
    [
      "i",
      "m"
    ],
    [
      "ı",
      "k"
    ],
    [
      "i",
      "r"
    ],
    [
      "a",
      "m"
    ],
    [
      "i",
      "s"
    ],
    [
      "▁m",
      "ı"
    ],
    [
      "▁",
      "B"
    ],
    [
      "u",
      "n"
    ],
    [
      "m",
      "ız"
    ],
    [
      "ları",
      "mız"
    ],
    [
      "d",
      "an"
    ],
    [
      "▁s",
      "on"
    ],
    [
      "y",
      "ı"
    ],
    [
      "da",
      "k"
    ],
    [
      "a",
      "z"
    ],
    [
      "ın",
      "ı"
    ],
    [
      "t",
      "a"
    ],
    [
      "e",
      "s"
    ],
    [
      "▁",
      "G"
    ],
    [
      "▁",
      "D"
    ],
    [
      "▁ç",
      "ık"
    ],
    [
      "▁",
      "S"
    ],
    [
      "d",
      "ek"
    ],
    [
      "t",
      "i"
    ],
    [
      "le",
      "n"
    ],
    [
      "le",
      "di"
    ],
    [
      "az",
      "ı"
    ],
    [
      "a",
      "h"
    ],
    [
      "▁v",
      "e"
    ],
    [
      "▁",
      "h"
    ],
    [
      "ü",
      "r"
    ],
    [
      "t",
      "u"
    ],
    [
      "▁",
      "p"
    ],
    [
      "ş",
      "tı"
    ],
    [
      "ö",
      "r"
    ],
    [
      "o",
      "s"
    ],
    [
      "i",
      "t"
    ],
    [
      "i",
      "l"
    ],
    [
      "c",
      "u"
    ],
    [
      "a",
      "s"
    ],
    [
      "▁k",
      "u"
    ],
    [
      "iler",
      "den"
    ],
    [
      "en",
      "i"
    ],
    [
      "ap",
      "ı"
    ],
    [
      "a",
      "l"
    ],
    [
      "ö",
      "n"
    ],
    [
      "os",
      "ya"
    ],
    [
      "i",
      "k"
    ],
    [
      "e",
      "y"
    ],
    [
      "▁B",
      "u"
    ],
    [
      "▁",
      "ar"
    ],
    [
      "or",
      "u"
    ],
    [
      "o",
      "p"
    ],
    [
      "o",
      "m"
    ],
    [
      "ler",
      "im"
    ],
    [
      "len",
      "di"
    ],
    [
      "larımız",
      "dan"
    ],
    [
      "d",
      "ü"
    ],
    [
      "d",
      "e"
    ],
    [
      "ar",
      "ın"
    ],
    [
      "▁çık",
      "tı"
    ],
    [
      "▁y",
      "eni"
    ],
    [
      "▁son",
      "ra"
    ],
    [
      "▁",
      "ek"
    ],
    [
      "▁",
      "O"
    ],
    [
      "r",
      "ı"
    ],
    [
      "lerim",
      "iz"
    ],
    [
      "c",
      "am"
    ],
    [
      "ab",
      "ah"
    ],
    [
      "a",
      "c"
    ],
    [
      "▁ka",
      "ldı"
    ],
    [
      "▁d",
      "e"
    ],
    [
      "▁a",
      "ç"
    ],
    [
      "▁",
      "r"
    ],
    [
      "▁",
      "M"
    ],
    [
      "ş",
      "am"
    ],
    [
      "y",
      "om"
    ],
    [
      "o",
      "l"
    ],
    [
      "larımız",
      "dak"
    ],
    [
      "k",
      "şam"
    ],
    [
      "k",
      "en"
    ],
    [
      "▁g",
      "e"
    ],
    [
      "▁d",
      "ü"
    ],
    [
      "▁b",
      "u"
    ],
    [
      "▁b",
      "ir"
    ],
    [
      "▁b",
      "ek"
    ],
    [
      "▁Y",
      "arın"
    ],
    [
      "ın",
      "ız"
    ],
    [
      "op",
      "lan"
    ],
    [
      "iler",
      "i"
    ],
    [
      "i",
      "ş"
    ],
    [
      "e",
      "m"
    ],
    [
      "dek",
      "i"
    ],
    [
      "c",
      "ek"
    ],
    [
      "a",
      "ş"
    ],
    [
      "a",
      "ğ"
    ],
    [
      "a",
      "t"
    ],
    [
      "▁k",
      "ap"
    ],
    [
      "▁K",
      "a"
    ],
    [
      "▁",
      "u"
    ],
    [
      "▁",
      "n"
    ],
    [
      "▁",
      "di"
    ],
    [
      "▁",
      "P"
    ],
    [
      "▁",
      "N"
    ],
    [
      "ür",
      "ü"
    ],
    [
      "oplan",
      "tı"
    ],
    [
      "lan",
      "dı"
    ],
    [
      "k",
      "u"
    ],
    [
      "g",
      "ün"
    ],
    [
      "ar",
      "dı"
    ],
    [
      "▁o",
      "ku"
    ],
    [
      "▁d",
      "osya"
    ],
    [
      "▁a",
      "ldı"
    ],
    [
      "▁",
      "er"
    ],
    [
      "▁",
      "R"
    ],
    [
      "s",
      "ı"
    ],
    [
      "r",
      "du"
    ],
    [
      "lan",
      "ı"
    ],
    [
      "la",
      "dı"
    ],
    [
      "l",
      "o"
    ],
    [
      "el",
      "i"
    ],
    [
      "_",
      "v"
    ],
    [
      "P",
      "I"
    ],
    [
      "▁son",
      "u"
    ],
    [
      "▁s",
      "e"
    ],
    [
      "▁r",
      "ap"
    ],
    [
      "▁mı",
      "s"
    ],
    [
      "▁m",
      "is"
    ],
    [
      "▁mis",
      "in"
    ],
    [
      "▁g",
      "el"
    ],
    [
      "▁gel",
      "di"
    ],
    [
      "▁dü",
      "z"
    ],
    [
      "▁d",
      "u"
    ],
    [
      "▁a",
      "ma"
    ],
    [
      "▁S",
      "abah"
    ],
    [
      "▁G",
      "eli"
    ],
    [
      "▁D",
      "ün"
    ],
    [
      "▁A",
      "kşam"
    ],
    [
      "▁",
      "ö"
    ],
    [
      "▁",
      "T"
    ],
    [
      "ı",
      "m"
    ],
    [
      "ğ",
      "r"
    ],
    [
      "s",
      "on"
    ],
    [
      "r",
      "o"
    ],
    [
      "o",
      "t"
    ],
    [
      "j",
      "son"
    ],
    [
      "is",
      "t"
    ],
    [
      "in",
      "i"
    ],
    [
      "i",
      "le"
    ],
    [
      "ey",
      "i"
    ],
    [
      "e",
      "di"
    ],
    [
      "ce",
      "m"
    ],
    [
      "c",
      "ı"
    ],
    [
      "a",
      "y"
    ],
    [
      "▁y",
      "ürü"
    ],
    [
      "▁se",
      "ç"
    ],
    [
      "▁oku",
      "du"
    ],
    [
      "▁m",
      "i"
    ],
    [
      "▁k",
      "on"
    ],
    [
      "▁g",
      "ör"
    ],
    [
      "▁er",
      "ken"
    ],
    [
      "▁bek",
      "ledi"
    ],
    [
      "▁a",
      "y"
    ],
    [
      "▁K",
      "it"
    ],
    [
      "▁A",
      "l"
    ],
    [
      "▁",
      "Ç"
    ],
    [
      "▁",
      "in"
    ],
    [
      "▁",
      "et"
    ],
    [
      "▁",
      "E"
    ],
    [
      "ş",
      "u"
    ],
    [
      "ı",
      "ştı"
    ],
    [
      "t",
      "ın"
    ],
    [
      "ra",
      "f"
    ],
    [
      "ler",
      "i"
    ],
    [
      "larımızdak",
      "ilerden"
    ],
    [
      "ir",
      "di"
    ],
    [
      "i",
      "p"
    ],
    [
      "er",
      "i"
    ],
    [
      "dak",
      "i"
    ],
    [
      "an",
      "ta"
    ],
    [
      "ac",
      "ak"
    ],
    [
      "ab",
      "er"
    ],
    [
      "▁ç",
      "anta"
    ],
    [
      "▁o",
      "lanı"
    ],
    [
      "▁n",
      "ot"
    ],
    [
      "▁ka",
      "y"
    ],
    [
      "▁k",
      "o"
    ],
    [
      "▁k",
      "ar"
    ],
    [
      "▁de",
      "ğ"
    ],
    [
      "▁d",
      "ön"
    ],
    [
      "▁b",
      "i"
    ],
    [
      "▁bi",
      "ra"
    ],
    [
      "▁bira",
      "z"
    ],
    [
      "▁b",
      "el"
    ],
    [
      "▁b",
      "azı"
    ],
    [
      "▁D",
      "osya"
    ],
    [
      "▁Bu",
      "gün"
    ],
    [
      "▁",
      "i"
    ],
    [
      "▁i",
      "ç"
    ],
    [
      "▁",
      "f"
    ],
    [
      "ın",
      "ın"
    ],
    [
      "yı",
      "t"
    ],
    [
      "s",
      "a"
    ],
    [
      "rı",
      "ldı"
    ],
    [
      "ro",
      "j"
    ],
    [
      "o",
      "cu"
    ],
    [
      "lerimiz",
      "dek"
    ],
    [
      "la",
      "ştı"
    ],
    [
      "il",
      "di"
    ],
    [
      "g",
      "i"
    ],
    [
      "er",
      "di"
    ],
    [
      "cu",
      "lar"
    ],
    [
      "an",
      "a"
    ],
    [
      "a",
      "f"
    ],
    [
      "a",
      "da"
    ],
    [
      "▁y",
      "an"
    ],
    [
      "▁t",
      "oplantı"
    ],
    [
      "▁t",
      "aş"
    ],
    [
      "▁t",
      "ar"
    ],
    [
      "▁s",
      "ür"
    ],
    [
      "▁s",
      "o"
    ],
    [
      "▁s",
      "abah"
    ],
    [
      "▁s",
      "a"
    ],
    [
      "▁rap",
      "or"
    ],
    [
      "▁misin",
      "iz"
    ],
    [
      "▁m",
      "et"
    ],
    [
      "▁m",
      "as"
    ],
    [
      "▁ku",
      "tu"
    ],
    [
      "▁kar",
      "ar"
    ],
    [
      "▁kap",
      "at"
    ],
    [
      "▁k",
      "ı"
    ],
    [
      "▁h",
      "azı"
    ],
    [
      "▁hazı",
      "r"
    ],
    [
      "▁g",
      "i"
    ],
    [
      "▁ek",
      "ip"
    ],
    [
      "▁düz",
      "el"
    ],
    [
      "▁du",
      "rdu"
    ],
    [
      "▁bazı",
      "ları"
    ],
    [
      "▁b",
      "aş"
    ],
    [
      "▁aldı",
      "m"
    ],
    [
      "▁Y",
      "azı"
    ],
    [
      "▁T",
      "oplantı"
    ],
    [
      "▁A",
      "PI"
    ],
    [
      "▁",
      "ş"
    ],
    [
      "▁",
      "ön"
    ],
    [
      "▁",
      "l"
    ],
    [
      "▁l",
      "ist"
    ],
    [
      "▁",
      "c"
    ],
    [
      "▁",
      "H"
    ],
    [
      "ı",
      "t"
    ],
    [
      "ğ",
      "ını"
    ],
    [
      "ç",
      "ü"
    ],
    [
      "y",
      "un"
    ],
    [
      "y",
      "or"
    ],
    [
      "y",
      "e"
    ],
    [
      "u",
      "t"
    ],
    [
      "t",
      "iler"
    ],
    [
      "lo",
      "g"
    ],
    [
      "lerimiz",
      "den"
    ],
    [
      "le",
      "m"
    ],
    [
      "lar",
      "ını"
    ],
    [
      "l",
      "i"
    ],
    [
      "l",
      "du"
    ],
    [
      "l",
      "di"
    ],
    [
      "es",
      "i"
    ],
    [
      "en",
      "c"
    ],
    [
      "dı",
      "m"
    ],
    [
      "dü",
      "m"
    ],
    [
      "d",
      "ın"
    ],
    [
      "c",
      "ak"
    ],
    [
      "as",
      "ı"
    ],
    [
      "ak",
      "ın"
    ],
    [
      "ak",
      "ı"
    ],
    [
      "a",
      "ta"
    ],
    [
      "▁ş",
      "im"
    ],
    [
      "▁şim",
      "di"
    ],
    [
      "▁ö",
      "ğr"
    ],
    [
      "▁ç",
      "iz"
    ],
    [
      "▁ç",
      "al"
    ],
    [
      "▁çal",
      "ıştı"
    ],
    [
      "▁Ç",
      "ocu"
    ],
    [
      "▁yan",
      "ıt"
    ],
    [
      "▁y",
      "ol"
    ],
    [
      "▁y",
      "az"
    ],
    [
      "▁v",
      "ardı"
    ],
    [
      "▁u",
      "z"
    ],
    [
      "▁taş",
      "ı"
    ],
    [
      "▁taşı",
      "dı"
    ],
    [
      "▁t",
      "em"
    ],
    [
      "▁tem",
      "iz"
    ],
    [
      "▁t",
      "ek"
    ],
    [
      "▁sür",
      "e"
    ],
    [
      "▁sonu",
      "cu"
    ],
    [
      "▁s",
      "oru"
    ],
    [
      "▁s",
      "or"
    ],
    [
      "▁s",
      "es"
    ],
    [
      "▁ses",
      "s"
    ],
    [
      "▁sess",
      "iz"
    ],
    [
      "▁s",
      "er"
    ],
    [
      "▁p",
      "ay"
    ],
    [
      "▁pay",
      "la"
    ],
    [
      "▁payla",
      "ş"
    ],
    [
      "▁mıs",
      "ınız"
    ],
    [
      "▁mıs",
      "ın"
    ],
    [
      "▁kı",
      "sa"
    ],
    [
      "▁kon",
      "u"
    ],
    [
      "▁ko",
      "y"
    ],
    [
      "▁k",
      "it"
    ],
    [
      "▁k",
      "apı"
    ],
    [
      "▁in",
      "ce"
    ],
    [
      "▁ge",
      "len"
    ],
    [
      "▁g",
      "ün"
    ],
    [
      "▁g",
      "ö"
    ],
    [
      "▁ek",
      "r"
    ],
    [
      "▁düzel",
      "t"
    ],
    [
      "▁dosya",
      "sı"
    ],
    [
      "▁değ",
      "iş"
    ],
    [
      "▁c",
      "on"
    ],
    [
      "▁con",
      "f"
    ],
    [
      "▁conf",
      "i"
    ],
    [
      "▁confi",
      "g"
    ],
    [
      "▁bu",
      "gün"
    ],
    [
      "▁bel",
      "g"
    ],
    [
      "▁bek",
      "le"
    ],
    [
      "▁a",
      "l"
    ],
    [
      "▁a",
      "kşam"
    ],
    [
      "▁Yazı",
      "cam"
    ],
    [
      "▁Y",
      "apı"
    ],
    [
      "▁Yapı",
      "cam"
    ],
    [
      "▁R",
      "E"
    ],
    [
      "▁RE",
      "A"
    ],
    [
      "▁REA",
      "D"
    ],
    [
      "▁READ",
      "M"
    ],
    [
      "▁READM",
      "E"
    ],
    [
      "▁README",
      "_"
    ],
    [
      "▁P",
      "y"
    ],
    [
      "▁Py",
      "t"
    ],
    [
      "▁Pyt",
      "h"
    ],
    [
      "▁Pyth",
      "on"
    ],
    [
      "▁P",
      "roj"
    ],
    [
      "▁O",
      "yun"
    ],
    [
      "▁O",
      "p"
    ],
    [
      "▁Op",
      "en"
    ],
    [
      "▁Open",
      "A"
    ],
    [
      "▁OpenA",
      "I"
    ],
    [
      "▁OpenAI",
      "laştı"
    ],
    [
      "▁N",
      "apı"
    ],
    [
      "▁N",
      "aber"
    ],
    [
      "▁Kit",
      "ap"
    ],
    [
      "▁Ka",
      "yıt"
    ],
    [
      "▁K",
      "o"
    ],
    [
      "▁Ko",
      "şu"
    ],
    [
      "▁H",
      "af"
    ],
    [
      "▁Haf",
      "ta"
    ],
    [
      "▁Geli",
      "yom"
    ],
    [
      "▁Geli",
      "cem"
    ],
    [
      "▁G",
      "ör"
    ],
    [
      "▁Gör",
      "ü"
    ],
    [
      "▁Görü",
      "cem"
    ],
    [
      "▁G",
      "i"
    ],
    [
      "▁Gi",
      "di"
    ],
    [
      "▁Gidi",
      "yom"
    ],
    [
      "▁B",
      "akı"
    ],
    [
      "▁",
      "İ"
    ],
    [
      "▁",
      "Ö"
    ],
    [
      "▁",
      "iz"
    ],
    [
      "▁",
      "ce"
    ],
    [
      "▁ce",
      "v"
    ],
    [
      "ı",
      "ş"
    ],
    [
      "ı",
      "ldı"
    ],
    [
      "ğ",
      "un"
    ],
    [
      "ü",
      "çü"
    ],
    [
      "un",
      "u"
    ],
    [
      "u",
      "l"
    ],
    [
      "tı",
      "m"
    ],
    [
      "tı",
      "ldı"
    ],
    [
      "ti",
      "k"
    ],
    [
      "t",
      "ınız"
    ],
    [
      "t",
      "e"
    ],
    [
      "s",
      "u"
    ],
    [
      "ra",
      "da"
    ],
    [
      "r",
      "ma"
    ],
    [
      "r",
      "dı"
    ],
    [
      "n",
      "ın"
    ],
    [
      "n",
      "in"
    ],
    [
      "n",
      "e"
    ],
    [
      "m",
      "u"
    ],
    [
      "m",
      "d"
    ],
    [
      "ledi",
      "k"
    ],
    [
      "larımızdak",
      "ileri"
    ],
    [
      "lar",
      "a"
    ],
    [
      "la",
      "ma"
    ],
    [
      "l",
      "ü"
    ],
    [
      "l",
      "m"
    ],
    [
      "k",
      "k"
    ],
    [
      "k",
      "ada"
    ],
    [
      "kada",
      "ş"
    ],
    [
      "is",
      "i"
    ],
    [
      "f",
      "t"
    ],
    [
      "ey",
      "e"
    ],
    [
      "et",
      "m"
    ],
    [
      "e",
      "v"
    ],
    [
      "e",
      "ce"
    ],
    [
      "di",
      "ler"
    ],
    [
      "dak",
      "ilerden"
    ],
    [
      "cı",
      "lar"
    ],
    [
      "ağ",
      "ını"
    ],
    [
      "as",
      "an"
    ],
    [
      "ar",
      "a"
    ],
    [
      "an",
      "dı"
    ],
    [
      "a",
      "ya"
    ],
    [
      "a",
      "v"
    ],
    [
      "L",
      "I"
    ],
    [
      "C",
      "LI"
    ],
    [
      "A",
      "PI"
    ],
    [
      "▁öğr",
      "etm"
    ],
    [
      "▁öğretm",
      "en"
    ],
    [
      "▁çıktı",
      "lar"
    ],
    [
      "▁çık",
      "ardı"
    ],
    [
      "▁çıkardı",
      "k"
    ],
    [
      "▁çık",
      "ar"
    ],
    [
      "▁Çocu",
      "ğun"
    ],
    [
      "▁yeni",
      "den"
    ],
    [
      "▁y",
      "ı"
    ],
    [
      "▁y",
      "o"
    ],
    [
      "▁y",
      "azı"
    ],
    [
      "▁v",
      "erdi"
    ],
    [
      "▁toplantı",
      "ya"
    ],
    [
      "▁tar",
      "tı"
    ],
    [
      "▁t",
      "es"
    ],
    [
      "▁t",
      "ab"
    ],
    [
      "▁t",
      "a"
    ],
    [
      "▁ta",
      "ma"
    ],
    [
      "▁tama",
      "m"
    ],
    [
      "▁soru",
      "su"
    ],
    [
      "▁sor",
      "du"
    ],
    [
      "▁so",
      "k"
    ],
    [
      "▁sok",
      "ak"
    ],
    [
      "▁sa",
      "tı"
    ],
    [
      "▁satı",
      "r"
    ],
    [
      "▁s",
      "ı"
    ],
    [
      "▁s",
      "ak"
    ],
    [
      "▁s",
      "ah"
    ],
    [
      "▁rap",
      "oru"
    ],
    [
      "▁paylaş",
      "acak"
    ],
    [
      "▁p",
      "lan"
    ],
    [
      "▁okudu",
      "m"
    ],
    [
      "▁o",
      "da"
    ],
    [
      "▁met",
      "n"
    ],
    [
      "▁metn",
      "i"
    ],
    [
      "▁m",
      "ü"
    ],
    [
      "▁ku",
      "ş"
    ],
    [
      "▁ku",
      "ma"
    ],
    [
      "▁kuma",
      "ş"
    ],
    [
      "▁koy",
      "du"
    ],
    [
      "▁kit",
      "ap"
    ],
    [
      "▁ka",
      "l"
    ],
    [
      "▁k",
      "üçü"
    ],
    [
      "▁küçü",
      "k"
    ],
    [
      "▁k",
      "ab"
    ],
    [
      "▁h",
      "ata"
    ],
    [
      "▁h",
      "aber"
    ],
    [
      "▁gi",
      "den"
    ],
    [
      "▁ge",
      "ç"
    ],
    [
      "▁ge",
      "le"
    ],
    [
      "▁gele",
      "cek"
    ],
    [
      "▁ekr",
      "an"
    ],
    [
      "▁ek",
      "s"
    ],
    [
      "▁eks",
      "ik"
    ],
    [
      "▁düz",
      "en"
    ],
    [
      "▁du",
      "v"
    ],
    [
      "▁di",
      "n"
    ],
    [
      "▁di",
      "kk"
    ],
    [
      "▁dikk",
      "at"
    ],
    [
      "▁de",
      "ft"
    ],
    [
      "▁config",
      "_"
    ],
    [
      "▁bu",
      "ldu"
    ],
    [
      "▁biraz",
      "dan"
    ],
    [
      "▁bir",
      "i"
    ],
    [
      "▁belg",
      "e"
    ],
    [
      "▁b",
      "it"
    ],
    [
      "▁b",
      "ak"
    ],
    [
      "▁aç",
      "ık"
    ],
    [
      "▁ar",
      "ş"
    ],
    [
      "▁arş",
      "i"
    ],
    [
      "▁arşi",
      "v"
    ],
    [
      "▁ar",
      "kadaş"
    ],
    [
      "▁ar",
      "ab"
    ],
    [
      "▁a",
      "z"
    ],
    [
      "▁a",
      "lan"
    ],
    [
      "▁Y",
      "akın"
    ],
    [
      "▁Toplantı",
      "da"
    ],
    [
      "▁S",
      "oru"
    ],
    [
      "▁R",
      "en"
    ],
    [
      "▁Ren",
      "g"
    ],
    [
      "▁Reng",
      "ini"
    ],
    [
      "▁Proj",
      "e"
    ],
    [
      "▁Oyun",
      "c"
    ],
    [
      "▁OpenAIlaştı",
      "rı"
    ],
    [
      "▁O",
      "du"
    ],
    [
      "▁Odu",
      "n"
    ],
    [
      "▁M",
      "asan"
    ],
    [
      "▁Masan",
      "ın"
    ],
    [
      "▁Koşu",
      "yom"
    ],
    [
      "▁Kit",
      "ab"
    ],
    [
      "▁Ka",
      "dın"
    ],
    [
      "▁K",
      "edi"
    ],
    [
      "▁K",
      "ap"
    ],
    [
      "▁K",
      "ana"
    ],
    [
      "▁Kana",
      "d"
    ],
    [
      "▁K",
      "al"
    ],
    [
      "▁Kal",
      "ın"
    ],
    [
      "▁D",
      "u"
    ],
    [
      "▁Du",
      "da"
    ],
    [
      "▁Bakı",
      "cam"
    ],
    [
      "▁B",
      "ile"
    ],
    [
      "▁Bile",
      "ğ"
    ],
    [
      "▁Al",
      "ın"
    ],
    [
      "▁Al",
      "tın"
    ],
    [
      "▁A",
      "ğ"
    ],
    [
      "▁Ağ",
      "ac"
    ],
    [
      "▁Ağac",
      "ın"
    ],
    [
      "▁A",
      "ya"
    ],
    [
      "▁",
      "ör"
    ],
    [
      "▁",
      "z"
    ],
    [
      "▁",
      "raf"
    ],
    [
      "▁",
      "iş"
    ],
    [
      "▁",
      "es"
    ],
    [
      "▁es",
      "k"
    ],
    [
      "▁",
      "edi"
    ],
    [
      "▁edi",
      "ldi"
    ],
    [
      "▁",
      "V"
    ],
    [
      "ın",
      "dı"
    ],
    [
      "ğ",
      "ı"
    ],
    [
      "ğ",
      "i"
    ],
    [
      "y",
      "u"
    ],
    [
      "un",
      "da"
    ],
    [
      "u",
      "z"
    ],
    [
      "tı",
      "k"
    ],
    [
      "tu",
      "lar"
    ],
    [
      "t",
      "ü"
    ],
    [
      "t",
      "r"
    ],
    [
      "s",
      "un"
    ],
    [
      "rdı",
      "k"
    ],
    [
      "on",
      "u"
    ],
    [
      "n",
      "iz"
    ],
    [
      "lerimizdek",
      "ileri"
    ],
    [
      "lerimizdek",
      "ilerden"
    ],
    [
      "l",
      "ık"
    ],
    [
      "l",
      "ik"
    ],
    [
      "k",
      "ı"
    ],
    [
      "er",
      "ileri"
    ],
    [
      "enc",
      "iler"
    ],
    [
      "dü",
      "ler"
    ],
    [
      "di",
      "m"
    ],
    [
      "d",
      "ınız"
    ],
    [
      "ar",
      "ı"
    ],
    [
      "ah",
      "ç"
    ],
    [
      "ab",
      "ı"
    ],
    [
      "▁ör",
      "n"
    ],
    [
      "▁örn",
      "ek"
    ],
    [
      "▁ön",
      "ce"
    ],
    [
      "▁ö",
      "z"
    ],
    [
      "▁öz",
      "et"
    ],
    [
      "▁ö",
      "l"
    ],
    [
      "▁çanta",
      "da"
    ],
    [
      "▁ç",
      "ocu"
    ],
    [
      "▁çocu",
      "k"
    ],
    [
      "▁ç",
      "ev"
    ],
    [
      "▁ç",
      "ek"
    ],
    [
      "▁çek",
      "ti"
    ],
    [
      "▁Ö",
      "ğr"
    ],
    [
      "▁Öğr",
      "enciler"
    ],
    [
      "▁Ö",
      "ğ"
    ],
    [
      "▁Ç",
      "al"
    ],
    [
      "▁Çal",
      "ış"
    ],
    [
      "▁yürü",
      "düm"
    ],
    [
      "▁yol",
      "cular"
    ],
    [
      "▁yo",
      "la"
    ],
    [
      "▁yaz",
      "dım"
    ],
    [
      "▁y",
      "er"
    ],
    [
      "▁y",
      "e"
    ],
    [
      "▁ye",
      "dek"
    ],
    [
      "▁y",
      "arın"
    ],
    [
      "▁y",
      "ardı"
    ],
    [
      "▁yardı",
      "m"
    ],
    [
      "▁y",
      "apı"
    ],
    [
      "▁y",
      "ap"
    ],
    [
      "▁y",
      "akın"
    ],
    [
      "▁y",
      "a"
    ],
    [
      "▁ya",
      "yı"
    ],
    [
      "▁v",
      "ar"
    ],
    [
      "▁uz",
      "un"
    ],
    [
      "▁uz",
      "a"
    ],
    [
      "▁u",
      "ğ"
    ],
    [
      "▁uğ",
      "ra"
    ],
    [
      "▁u",
      "yu"
    ],
    [
      "▁uyu",
      "du"
    ],
    [
      "▁tes",
      "t"
    ],
    [
      "▁temiz",
      "lendi"
    ],
    [
      "▁tek",
      "r"
    ],
    [
      "▁tekr",
      "ar"
    ],
    [
      "▁taşıdı",
      "lar"
    ],
    [
      "▁tartı",
      "ş"
    ],
    [
      "▁tartış",
      "ıldı"
    ],
    [
      "▁tab",
      "lo"
    ],
    [
      "▁t",
      "ut"
    ],
    [
      "▁tut",
      "tu"
    ],
    [
      "▁t",
      "o"
    ],
    [
      "▁to",
      "ken"
    ],
    [
      "▁sordu",
      "lar"
    ],
    [
      "▁sonu",
      "ç"
    ],
    [
      "▁son",
      "unda"
    ],
    [
      "▁sokak",
      "ları"
    ],
    [
      "▁seç",
      "tik"
    ],
    [
      "▁seç",
      "ece"
    ],
    [
      "▁seçece",
      "ğ"
    ],
    [
      "▁seçeceğ",
      "iz"
    ],
    [
      "▁sessiz",
      "ce"
    ],
    [
      "▁ser",
      "v"
    ],
    [
      "▁ser",
      "gi"
    ],
    [
      "▁satır",
      "ları"
    ],
    [
      "▁sak",
      "in"
    ],
    [
      "▁sah",
      "aya"
    ],
    [
      "▁s",
      "unu"
    ],
    [
      "▁sunu",
      "mu"
    ],
    [
      "▁s",
      "ist"
    ],
    [
      "▁sist",
      "em"
    ],
    [
      "▁s",
      "ile"
    ],
    [
      "▁sile",
      "cek"
    ],
    [
      "▁s",
      "ay"
    ],
    [
      "▁say",
      "f"
    ],
    [
      "▁s",
      "al"
    ],
    [
      "▁rapor",
      "larımızdan"
    ],
    [
      "▁raf",
      "lara"
    ],
    [
      "▁r",
      "en"
    ],
    [
      "▁p",
      "roj"
    ],
    [
      "▁proj",
      "esi"
    ],
    [
      "▁p",
      "ar"
    ],
    [
      "▁p",
      "ak"
    ],
    [
      "▁pak",
      "et"
    ],
    [
      "▁okudu",
      "k"
    ],
    [
      "▁oku",
      "ya"
    ],
    [
      "▁okuya",
      "cak"
    ],
    [
      "▁o",
      "tu"
    ],
    [
      "▁otu",
      "rdu"
    ],
    [
      "▁oturdu",
      "lar"
    ],
    [
      "▁o",
      "t"
    ],
    [
      "▁o",
      "rada"
    ],
    [
      "▁not",
      "larını"
    ],
    [
      "▁not",
      "ları"
    ],
    [
      "▁n",
      "ası"
    ],
    [
      "▁nası",
      "l"
    ],
    [
      "▁mi",
      "y"
    ],
    [
      "▁miy",
      "iz"
    ],
    [
      "▁met",
      "in"
    ],
    [
      "▁mas",
      "aya"
    ],
    [
      "▁mas",
      "ada"
    ],
    [
      "▁m",
      "u"
    ],
    [
      "▁list",
      "eyi"
    ],
    [
      "▁list",
      "e"
    ],
    [
      "▁ku",
      "l"
    ],
    [
      "▁konu",
      "şu"
    ],
    [
      "▁konuşu",
      "r"
    ],
    [
      "▁konuşur",
      "uz"
    ],
    [
      "▁konu",
      "ş"
    ],
    [
      "▁kon",
      "tr"
    ],
    [
      "▁kontr",
      "ol"
    ],
    [
      "▁kay",
      "de"
    ],
    [
      "▁kay",
      "da"
    ],
    [
      "▁kapı",
      "yı"
    ],
    [
      "▁kapat",
      "tın"
    ],
    [
      "▁kap",
      "andı"
    ],
    [
      "▁kal",
      "k"
    ],
    [
      "▁kab",
      "ul"
    ],
    [
      "▁ka",
      "yıt"
    ],
    [
      "▁ka",
      "tıldı"
    ],
    [
      "▁ka",
      "lem"
    ],
    [
      "▁k",
      "la"
    ],
    [
      "▁kla",
      "s"
    ],
    [
      "▁klas",
      "ör"
    ],
    [
      "▁k",
      "im"
    ],
    [
      "▁k",
      "en"
    ],
    [
      "▁ken",
      "arı"
    ],
    [
      "▁iç",
      "i"
    ],
    [
      "▁ince",
      "lendi"
    ],
    [
      "▁ince",
      "ledi"
    ],
    [
      "▁hazır",
      "ladı"
    ],
    [
      "▁h",
      "er"
    ],
    [
      "▁her",
      "k"
    ],
    [
      "▁h",
      "em"
    ],
    [
      "▁hem",
      "en"
    ],
    [
      "▁gün",
      "c"
    ],
    [
      "▁günc",
      "el"
    ],
    [
      "▁güncel",
      "lendi"
    ],
    [
      "▁gör",
      "dü"
    ],
    [
      "▁gör",
      "d"
    ],
    [
      "▁görd",
      "ün"
    ],
    [
      "▁geldi",
      "m"
    ],
    [
      "▁geldi",
      "ler"
    ],
    [
      "▁g",
      "ön"
    ],
    [
      "▁gön",
      "d"
    ],
    [
      "▁gönd",
      "erdi"
    ],
    [
      "▁g",
      "it"
    ],
    [
      "▁git",
      "t"
    ],
    [
      "▁gitt",
      "im"
    ],
    [
      "▁g",
      "eri"
    ],
    [
      "▁f",
      "il"
    ],
    [
      "▁et",
      "tiler"
    ],
    [
      "▁et",
      "m"
    ],
    [
      "▁düzen",
      "ledi"
    ],
    [
      "▁düzelt",
      "tiler"
    ],
    [
      "▁dü",
      "ş"
    ],
    [
      "▁duv",
      "ara"
    ],
    [
      "▁durdu",
      "m"
    ],
    [
      "▁dosya",
      "s"
    ],
    [
      "▁dosyas",
      "ını"
    ],
    [
      "▁din",
      "ledi"
    ],
    [
      "▁di",
      "z"
    ],
    [
      "▁değiş",
      "ti"
    ],
    [
      "▁deft",
      "er"
    ],
    [
      "▁d",
      "ol"
    ],
    [
      "▁d",
      "o"
    ],
    [
      "▁do",
      "ğr"
    ],
    [
      "▁doğr",
      "u"
    ],
    [
      "▁d",
      "er"
    ],
    [
      "▁cev",
      "ap"
    ],
    [
      "▁cev",
      "abı"
    ],
    [
      "▁buldu",
      "k"
    ],
    [
      "▁belge",
      "leri"
    ],
    [
      "▁bel",
      "irdi"
    ],
    [
      "▁b",
      "ö"
    ],
    [
      "▁b",
      "o"
    ],
    [
      "▁b",
      "il"
    ],
    [
      "▁bil",
      "g"
    ],
    [
      "▁b",
      "e"
    ],
    [
      "▁be",
      "ğ"
    ],
    [
      "▁beğ",
      "en"
    ],
    [
      "▁b",
      "as"
    ],
    [
      "▁b",
      "ahç"
    ],
    [
      "▁ay",
      "rıldı"
    ],
    [
      "▁ay",
      "ar"
    ],
    [
      "▁arşiv",
      "e"
    ],
    [
      "▁arab",
      "ası"
    ],
    [
      "▁alan",
      "lar"
    ],
    [
      "▁a",
      "yı"
    ],
    [
      "▁ayı",
      "rdık"
    ],
    [
      "▁a",
      "ce"
    ],
    [
      "▁a",
      "c"
    ],
    [
      "▁Y",
      "ol"
    ],
    [
      "▁Yol",
      "cular"
    ],
    [
      "▁Y",
      "eni"
    ],
    [
      "▁V",
      "erileri"
    ],
    [
      "▁S",
      "onu"
    ],
    [
      "▁Proje",
      "lerimiz"
    ],
    [
      "▁Projelerimiz",
      "dakilerden"
    ],
    [
      "▁Oyunc",
      "ağını"
    ],
    [
      "▁Napı",
      "yor"
    ],
    [
      "▁Napıyor",
      "sun"
    ],
    [
      "▁Napı",
      "y"
    ],
    [
      "▁Kayıt",
      "larımızdan"
    ],
    [
      "▁Kap",
      "ağını"
    ],
    [
      "▁Kanad",
      "ını"
    ],
    [
      "▁K",
      "apı"
    ],
    [
      "▁Kapı",
      "yı"
    ],
    [
      "▁G",
      "ece"
    ],
    [
      "▁E",
      "di"
    ],
    [
      "▁Duda",
      "ğını"
    ],
    [
      "▁Dosya",
      "yı"
    ],
    [
      "▁Dosya",
      "larımızdakilerden"
    ],
    [
      "▁D",
      "e"
    ],
    [
      "▁Bileğ",
      "ini"
    ],
    [
      "▁Aya",
      "ğını"
    ],
    [
      "▁A",
      "ra"
    ],
    [
      "▁A",
      "r"
    ],
    [
      "▁A",
      "n"
    ],
    [
      "▁",
      "ı"
    ],
    [
      "▁",
      "la"
    ],
    [
      "▁",
      "is"
    ],
    [
      "▁",
      "ik"
    ],
    [
      "▁ik",
      "isi"
    ],
    [
      "▁",
      "ev"
    ],
    [
      "▁",
      "el"
    ],
    [
      "▁",
      "an"
    ],
    [
      "▁an",
      "la"
    ],
    [
      "▁",
      "L"
    ],
    [
      "▁",
      "F"
    ],
    [
      "▁",
      "C"
    ],
    [
      "ştı",
      "rma"
    ],
    [
      "ştırma",
      "cılar"
    ],
    [
      "ın",
      "da"
    ],
    [
      "ın",
      "av"
    ],
    [
      "ım",
      "cılar"
    ],
    [
      "ğ",
      "ının"
    ],
    [
      "ün",
      "de"
    ],
    [
      "ü",
      "ş"
    ],
    [
      "ü",
      "s"
    ],
    [
      "ü",
      "l"
    ],
    [
      "ye",
      "cek"
    ],
    [
      "y",
      "i"
    ],
    [
      "y",
      "an"
    ],
    [
      "u",
      "ğ"
    ],
    [
      "u",
      "k"
    ],
    [
      "tı",
      "lar"
    ],
    [
      "t",
      "tı"
    ],
    [
      "t",
      "in"
    ],
    [
      "t",
      "an"
    ],
    [
      "t",
      "ak"
    ],
    [
      "s",
      "_v"
    ],
    [
      "raf",
      "ik"
    ],
    [
      "ra",
      "k"
    ],
    [
      "r",
      "im"
    ],
    [
      "p",
      "r"
    ],
    [
      "oru",
      "m"
    ],
    [
      "ma",
      "s"
    ],
    [
      "ma",
      "dı"
    ],
    [
      "ma",
      "dan"
    ],
    [
      "m",
      "iş"
    ],
    [
      "miş",
      "ti"
    ],
    [
      "m",
      "in"
    ],
    [
      "m",
      "i"
    ],
    [
      "lm",
      "ıştı"
    ],
    [
      "lm",
      "ış"
    ],
    [
      "le",
      "ş"
    ],
    [
      "le",
      "yecek"
    ],
    [
      "lan",
      "acak"
    ],
    [
      "ladı",
      "lar"
    ],
    [
      "la",
      "cak"
    ],
    [
      "l",
      "ımcılar"
    ],
    [
      "l",
      "ı"
    ],
    [
      "l",
      "g"
    ],
    [
      "k",
      "i"
    ],
    [
      "is",
      "e"
    ],
    [
      "ir",
      "in"
    ],
    [
      "il",
      "le"
    ],
    [
      "il",
      "gi"
    ],
    [
      "h",
      "API"
    ],
    [
      "et",
      "ti"
    ],
    [
      "es",
      "a"
    ],
    [
      "esa",
      "j"
    ],
    [
      "er",
      "_v"
    ],
    [
      "enc",
      "er"
    ],
    [
      "e",
      "h"
    ],
    [
      "e",
      "deki"
    ],
    [
      "e",
      "cek"
    ],
    [
      "de",
      "cek"
    ],
    [
      "ağ",
      "ız"
    ],
    [
      "ağ",
      "ının"
    ],
    [
      "ar",
      "ım"
    ],
    [
      "an",
      "da"
    ],
    [
      "ac",
      "ağız"
    ],
    [
      "a",
      "larımızdan"
    ],
    [
      "_v",
      "2"
    ],
    [
      "M",
      "L"
    ]
  ]
}