{
  "version": 1,
  "vocab_size": 500,
  "merges": [
    [
      "a",
      "r"
    ],
    [
      "l",
      "e"
    ],
    [
      "a",
      "n"
    ],
    [
      "ı",
      "n"
    ],
    [
      "l",
      "ar"
    ],
    [
      "d",
      "i"
    ],
    [
      "▁",
      "k"
    ],
    [
      "▁",
      "s"
    ],
    [
      "e",
      "n"
    ],
    [
      "d",
      "ı"
    ],
    [
      "le",
      "r"
    ],
    [
      "▁",
      "b"
    ],
    [
      "d",
      "a"
    ],
    [
      "t",
      "ı"
    ],
    [
      "▁",
      "a"
    ],
    [
      "e",
      "k"
    ],
    [
      "▁",
      "m"
    ],
    [
      "i",
      "n"
    ],
    [
      "▁",
      "y"
    ],
    [
      "e",
      "r"
    ],
    [
      "▁",
      "d"
    ],
    [
      "o",
      "n"
    ],
    [
      "▁",
      "g"
    ],
    [
      "lar",
      "ı"
    ],
    [
      "a",
      "p"
    ],
    [
      "i",
      "z"
    ],
    [
      "▁",
      "t"
    ],
    [
      "▁",
      "ç"
    ],
    [
      "l",
      "an"
    ],
    [
      "▁",
      "K"
    ],
    [
      "ı",
      "z"
    ],
    [
      "l",
      "a"
    ],
    [
      "r",
      "a"
    ],
    [
      "l",
      "dı"
    ],
    [
      "y",
      "a"
    ],
    [
      "i",
      "ler"
    ],
    [
      "d",
      "en"
    ],
    [
      "a",
      "k"
    ],
    [
      "a",
      "b"
    ],
    [
      "▁",
      "A"
    ],
    [
      "d",
      "u"
    ],
    [
      "e",
      "l"
    ],
    [
      "o",
      "r"
    ],
    [
      "m",
      "a"
    ],
    [
      "e",
      "t"
    ],
    [
      "▁k",
      "a"
    ],
    [
      "▁",
      "Y"
    ],
    [
      "c",
      "e"
    ],
    [
      "▁",
      "v"
    ],
    [
      "▁",
      "o"
    ],
    [
      "ü",
      "n"
    ],
    [
      "i",
      "m"
    ],
    [
      "ı",
      "k"
    ],
    [
      "i",
      "r"
    ],
    [
      "a",
      "m"
    ],
    [
      "i",
      "s"
    ],
    [
      "▁m",
      "ı"
    ],
    [
      "▁",
      "B"
    ],
    [
      "u",
      "n"
    ],
    [
      "m",
      "ız"
    ],
    [
      "ları",
      "mız"
    ],
    [
      "d",
      "an"
    ],
    [
      "▁s",
      "on"
    ],
    [
      "y",
      "ı"
    ],
    [
      "da",
      "k"
    ],
    [
      "a",
      "z"
    ],
    [
      "ın",
      "ı"
    ],
    [
      "t",
      "a"
    ],
    [
      "e",
      "s"
    ],
    [
      "▁",
      "G"
    ],
    [
      "▁",
      "D"
    ],
    [
      "▁ç",
      "ık"
    ],
    [
      "▁",
      "S"
    ],
    [
      "d",
      "ek"
    ],
    [
      "t",
      "i"
    ],
    [
      "le",
      "n"
    ],
    [
      "le",
      "di"
    ],
    [
      "az",
      "ı"
    ],
    [
      "a",
      "h"
    ],
    [
      "▁v",
      "e"
    ],
    [
      "▁",
      "h"
    ],
    [
      "ü",
      "r"
    ],
    [
      "t",
      "u"
    ],
    [
      "▁",
      "p"
    ],
    [
      "ş",
      "tı"
    ],
    [
      "ö",
      "r"
    ],
    [
      "o",
      "s"
    ],
    [
      "i",
      "t"
    ],
    [
      "i",
      "l"
    ],
    [
      "c",
      "u"
    ],
    [
      "a",
      "s"
    ],
    [
      "▁k",
      "u"
    ],
    [
      "iler",
      "den"
    ],
    [
      "en",
      "i"
    ],
    [
      "ap",
      "ı"
    ],
    [
      "a",
      "l"
    ],
    [
      "ö",
      "n"
    ],
    [
      "os",
      "ya"
    ],
    [
      "i",
      "k"
    ],
    [
      "e",
      "y"
    ],
    [
      "▁B",
      "u"
    ],
    [
      "▁",
      "ar"
    ],
    [
      "or",
      "u"
    ],
    [
      "o",
      "p"
    ],
    [
      "o",
      "m"
    ],
    [
      "ler",
      "im"
    ],
    [
      "len",
      "di"
    ],
    [
      "larımız",
      "dan"
    ],
    [
      "d",
      "ü"
    ],
    [
      "d",
      "e"
    ],
    [
      "ar",
      "ın"
    ],
    [
      "▁çık",
      "tı"
    ],
    [
      "▁y",
      "eni"
    ],
    [
      "▁son",
      "ra"
    ],
    [
      "▁",
      "ek"
    ],
    [
      "▁",
      "O"
    ],
    [
      "r",
      "ı"
    ],
    [
      "lerim",
      "iz"
    ],
    [
      "c",
      "am"
    ],
    [
      "ab",
      "ah"
    ],
    [
      "a",
      "c"
    ],
    [
      "▁ka",
      "ldı"
    ],
    [
      "▁d",
      "e"
    ],
    [
      "▁a",
      "ç"
    ],
    [
      "▁",
      "r"
    ],
    [
      "▁",
      "M"
    ],
    [
      "ş",
      "am"
    ],
    [
      "y",
      "om"
    ],
    [
      "o",
      "l"
    ],
    [
      "larımız",
      "dak"
    ],
    [
      "k",
      "şam"
    ],
    [
      "k",
      "en"
    ],
    [
      "▁g",
      "e"
    ],
    [
      "▁d",
      "ü"
    ],
    [
      "▁b",
      "u"
    ],
    [
      "▁b",
      "ir"
    ],
    [
      "▁b",
      "ek"
    ],
    [
      "▁Y",
      "arın"
    ],
    [
      "ın",
      "ız"
    ],
    [
      "op",
      "lan"
    ],
    [
      "iler",
      "i"
    ],
    [
      "i",
      "ş"
    ],
    [
      "e",
      "m"
    ],
    [
      "dek",
      "i"
    ],
    [
      "c",
      "ek"
    ],
    [
      "a",
      "ş"
    ],
    [
      "a",
      "ğ"
    ],
    [
      "a",
      "t"
    ],
    [
      "▁k",
      "ap"
    ],
    [
      "▁K",
      "a"
    ],
    [
      "▁",
      "u"
    ],
    [
      "▁",
      "n"
    ],
    [
      "▁",
      "di"
    ],
    [
      "▁",
      "P"
    ],
    [
      "▁",
      "N"
    ],
    [
      "ür",
      "ü"
    ],
    [
      "oplan",
      "tı"
    ],
    [
      "lan",
      "dı"
    ],
    [
      "k",
      "u"
    ],
    [
      "g",
      "ün"
    ],
    [
      "ar",
      "dı"
    ],
    [
      "▁o",
      "ku"
    ],
    [
      "▁d",
      "osya"
    ],
    [
      "▁a",
      "ldı"
    ],
    [
      "▁",
      "er"
    ],
    [
      "▁",
      "R"
    ],
    [
      "s",
      "ı"
    ],
    [
      "r",
      "du"
    ],
    [
      "lan",
      "ı"
    ],
    [
      "la",
      "dı"
    ],
    [
      "l",
      "o"
    ],
    [
      "el",
      "i"
    ],
    [
      "_",
      "v"
    ],
    [
      "P",
      "I"
    ],
    [
      "▁son",
      "u"
    ],
    [
      "▁s",
      "e"
    ],
    [
      "▁r",
      "ap"
    ],
    [
      "▁mı",
      "s"
    ],
    [
      "▁m",
      "is"
    ],
    [
      "▁mis",
      "in"
    ],
    [
      "▁g",
      "el"
    ],
    [
      "▁gel",
      "di"
    ],
    [
      "▁dü",
      "z"
    ],
    [
      "▁d",
      "u"
    ],
    [
      "▁a",
      "ma"
    ],
    [
      "▁S",
      "abah"
    ],
    [
      "▁G",
      "eli"
    ],
    [
      "▁D",
      "ün"
    ],
    [
      "▁A",
      "kşam"
    ],
    [
      "▁",
      "ö"
    ],
    [
      "▁",
      "T"
    ],
    [
      "ı",
      "m"
    ],
    [
      "ğ",
      "r"
    ],
    [
      "s",
      "on"
    ],
    [
      "r",
      "o"
    ],
    [
      "o",
      "t"
    ],
    [
      "j",
      "son"
    ],
    [
      "is",
      "t"
    ],
    [
      "in",
      "i"
    ],
    [
      "i",
      "le"
    ],
    [
      "ey",
      "i"
    ],
    [
      "e",
      "di"
    ],
    [
      "ce",
      "m"
    ],
    [
      "c",
      "ı"
    ],
    [
      "a",
      "y"
    ],
    [
      "▁y",
      "ürü"
    ],
    [
      "▁se",
      "ç"
    ],
    [
      "▁oku",
      "du"
    ],
    [
      "▁m",
      "i"
    ],
    [
      "▁k",
      "on"
    ],
    [
      "▁g",
      "ör"
    ],
    [
      "▁er",
      "ken"
    ],
    [
      "▁bek",
      "ledi"
    ],
    [
      "▁a",
      "y"
    ],
    [
      "▁K",
      "it"
    ],
    [
      "▁A",
      "l"
    ],
    [
      "▁",
      "Ç"
    ],
    [
      "▁",
      "in"
    ],
    [
      "▁",
      "et"
    ],
    [
      "▁",
      "E"
    ],
    [
      "ş",
      "u"
    ],
    [
      "ı",
      "ştı"
    ],
    [
      "t",
      "ın"
    ],
    [
      "ra",
      "f"
    ],
    [
      "ler",
      "i"
    ],
    [
      "larımızdak",
      "ilerden"
    ],
    [
      "ir",
      "di"
    ],
    [
      "i",
      "p"
    ],
    [
      "er",
      "i"
    ],
    [
      "dak",
      "i"
    ],
    [
      "an",
      "ta"
    ],
    [
      "ac",
      "ak"
    ],
    [
      "ab",
      "er"
    ],
    [
      "▁ç",
      "anta"
    ],
    [
      "▁o",
      "lanı"
    ],
    [
      "▁n",
      "ot"
    ],
    [
      "▁ka",
      "y"
    ],
    [
      "▁k",
      "o"
    ],
    [
      "▁k",
      "ar"
    ],
    [
      "▁de",
      "ğ"
    ],
    [
      "▁d",
      "ön"
    ],
    [
      "▁b",
      "i"
    ],
    [
      "▁bi",
      "ra"
    ],
    [
      "▁bira",
      "z"
    ],
    [
      "▁b",
      "el"
    ],
    [
      "▁b",
      "azı"
    ],
    [
      "▁D",
      "osya"
    ],
    [
      "▁Bu",
      "gün"
    ],
    [
      "▁",
      "i"
    ],
    [
      "▁i",
      "ç"
    ],
    [
      "▁",
      "f"
    ],
    [
      "ın",
      "ın"
    ],
    [
      "yı",
      "t"
    ],
    [
      "s",
      "a"
    ],
    [
      "rı",
      "ldı"
    ],
    [
      "ro",
      "j"
    ],
    [
      "o",
      "cu"
    ],
    [
      "lerimiz",
      "dek"
    ],
    [
      "la",
      "ştı"
    ],
    [
      "il",
      "di"
    ],
    [
      "g",
      "i"
    ],
    [
      "er",
      "di"
    ],
    [
      "cu",
      "lar"
    ],
    [
      "an",
      "a"
    ],
    [
      "a",
      "f"
    ],
    [
      "a",
      "da"
    ],
    [
      "▁y",
      "an"
    ],
    [
      "▁t",
      "oplantı"
    ],
    [
      "▁t",
      "aş"
    ],
    [
      "▁t",
      "ar"
    ],
    [
      "▁s",
      "ür"
    ],
    [
      "▁s",
      "o"
    ],
    [
      "▁s",
      "abah"
    ],
    [
      "▁s",
      "a"
    ],
    [
      "▁rap",
      "or"
    ],
    [
      "▁misin",
      "iz"
    ],
    [
      "▁m",
      "et"
    ],
    [
      "▁m",
      "as"
    ],
    [
      "▁ku",
      "tu"
    ],
    [
      "▁kar",
      "ar"
    ],
    [
      "▁kap",
      "at"
    ],
    [
      "▁k",
      "ı"
    ],
    [
      "▁h",
      "azı"
    ],
    [
      "▁hazı",
      "r"
    ],
    [
      "▁g",
      "i"
    ],
    [
      "▁ek",
      "ip"
    ],
    [
      "▁düz",
      "el"
    ],
    [
      "▁du",
      "rdu"
    ],
    [
      "▁bazı",
      "ları"
    ],
    [
      "▁b",
      "aş"
    ],
    [
      "▁aldı",
      "m"
    ],
    [
      "▁Y",
      "azı"
    ],
    [
      "▁T",
      "oplantı"
    ],
    [
      "▁A",
      "PI"
    ],
    [
      "▁",
      "ş"
    ],
    [
      "▁",
      "ön"
    ],
    [
      "▁",
      "l"
    ],
    [
      "▁l",
      "ist"
    ],
    [
      "▁",
      "c"
    ],
    [
      "▁",
      "H"
    ],
    [
      "ı",
      "t"
    ],
    [
      "ğ",
      "ını"
    ],
    [
      "ç",
      "ü"
    ],
    [
      "y",
      "un"
    ],
    [
      "y",
      "or"
    ],
    [
      "y",
      "e"
    ],
    [
      "u",
      "t"
    ],
    [
      "t",
      "iler"
    ],
    [
      "lo",
      "g"
    ],
    [
      "lerimiz",
      "den"
    ],
    [
      "le",
      "m"
    ],
    [
      "lar",
      "ını"
    ],
    [
      "l",
      "i"
    ],
    [
      "l",
      "du"
    ],
    [
      "l",
      "di"
    ],
    [
      "es",
      "i"
    ],
    [
      "en",
      "c"
    ],
    [
      "dı",
      "m"
    ],
    [
      "dü",
      "m"
    ],
    [
      "d",
      "ın"
    ],
    [
      "c",
      "ak"
    ],
    [
      "as",
      "ı"
    ],
    [
      "ak",
      "ın"
    ],
    [
      "ak",
      "ı"
    ],
    [
      "a",
      "ta"
    ],
    [
      "▁ş",
      "im"
    ],
    [
      "▁şim",
      "di"
    ],
    [
      "▁ö",
      "ğr"
    ],
    [
      "▁ç",
      "iz"
    ],
    [
      "▁ç",
      "al"
    ],
    [
      "▁çal",
      "ıştı"
    ],
    [
      "▁Ç",
      "ocu"
    ],
    [
      "▁yan",
      "ıt"
    ],
    [
      "▁y",
      "ol"
    ],
    [
      "▁y",
      "az"
    ],
    [
      "▁v",
      "ardı"
    ],
    [
      "▁u",
      "z"
    ],
    [
      "▁taş",
      "ı"
    ],
    [
      "▁taşı",
      "dı"
    ],
    [
      "▁t",
      "em"
    ],
    [
      "▁tem",
      "iz"
    ],
    [
      "▁t",
      "ek"
    ],
    [
      "▁sür",
      "e"
    ],
    [
      "▁sonu",
      "cu"
    ],
    [
      "▁s",
      "oru"
    ],
    [
      "▁s",
      "or"
    ],
    [
      "▁s",
      "es"
    ],
    [
      "▁ses",
      "s"
    ],
    [
      "▁sess",
      "iz"
    ],
    [
      "▁s",
      "er"
    ],
    [
      "▁p",
      "ay"
    ],
    [
      "▁pay",
      "la"
    ],
    [
      "▁payla",
      "ş"
    ],
    [
      "▁mıs",
      "ınız"
    ],
    [
      "▁mıs",
      "ın"
    ],
    [
      "▁kı",
      "sa"
    ],
    [
      "▁kon",
      "u"
    ],
    [
      "▁ko",
      "y"
    ],
    [
      "▁k",
      "it"
    ],
    [
      "▁k",
      "apı"
    ],
    [
      "▁in",
      "ce"
    ],
    [
      "▁ge",
      "len"
    ],
    [
      "▁g",
      "ün"
    ],
    [
      "▁g",
      "ö"
    ],
    [
      "▁ek",
      "r"
    ],
    [
      "▁düzel",
      "t"
    ],
    [
      "▁dosya",
      "sı"
    ],
    [
      "▁değ",
      "iş"
    ],
    [
      "▁c",
      "on"
    ],
    [
      "▁con",
      "f"
    ],
    [
      "▁conf",
      "i"
    ],
    [
      "▁confi",
      "g"
    ],
    [
      "▁bu",
      "gün"
    ],
    [
      "▁bel",
      "g"
    ],
    [
      "▁bek",
      "le"
    ],
    [
      "▁a",
      "l"
    ],
    [
      "▁a",
      "kşam"
    ],
    [
      "▁Yazı",
      "cam"
    ],
    [
      "▁Y",
      "apı"
    ],
    [
      "▁Yapı",
      "cam"
    ],
    [
      "▁R",
      "E"
    ],
    [
      "▁RE",
      "A"
    ],
    [
      "▁REA",
      "D"
    ],
    [
      "▁READ",
      "M"
    ],
    [
      "▁READM",
      "E"
    ],
    [
      "▁README",
      "_"
    ],
    [
      "▁P",
      "y"
    ],
    [
      "▁Py",
      "t"
    ],
    [
      "▁Pyt",
      "h"
    ],
    [
      "▁Pyth",
      "on"
    ],
    [
      "▁P",
      "roj"
    ],
    [
      "▁O",
      "yun"
    ],
    [
      "▁O",
      "p"
    ],
    [
      "▁Op",
      "en"
    ],
    [
      "▁Open",
      "A"
    ],
    [
      "▁OpenA",
      "I"
    ],
    [
      "▁OpenAI",
      "laştı"
    ],
    [
      "▁N",
      "apı"
    ],
    [
      "▁N",
      "aber"
    ],
    [
      "▁Kit",
      "ap"
    ],
    [
      "▁Ka",
      "yıt"
    ],
    [
      "▁K",
      "o"
    ],
    [
      "▁Ko",
      "şu"
    ],
    [
      "▁H",
      "af"
    ],
    [
      "▁Haf",
      "ta"
    ],
    [
      "▁Geli",
      "yom"
    ],
    [
      "▁Geli",
      "cem"
    ],
    [
      "▁G",
      "ör"
    ],
    [
      "▁Gör",
      "ü"
    ],
    [
      "▁Görü",
      "cem"
    ],
    [
      "▁G",
      "i"
    ],
    [
      "▁Gi",
      "di"
    ],
    [
      "▁Gidi",
      "yom"
    ],
    [
      "▁B",
      "akı"
    ],
    [
      "▁",
      "İ"
    ],
    [
      "▁",
      "Ö"
    ],
    [
      "▁",
      "iz"
    ],
    [
      "▁",
      "ce"
    ],
    [
      "▁ce",
      "v"
    ],
    [
      "ı",
      "ş"
    ],
    [
      "ı",
      "ldı"
    ],
    [
      "ğ",
      "un"
    ],
    [
      "ü",
      "çü"
    ],
    [
      "un",
      "u"
    ],
    [
      "u",
      "l"
    ],
    [
      "tı",
      "m"
    ],
    [
      "tı",
      "ldı"
    ],
    [
      "ti",
      "k"
    ],
    [
      "t",
      "ınız"
    ],
    [
      "t",
      "e"
    ],
    [
      "s",
      "u"
    ],
    [
      "ra",
      "da"
    ],
    [
      "r",
      "ma"
    ],
    [
      "r",
      "dı"
    ]
  ]
}